
#pragma once

#ifdef __has_attribute
#define HAVE_ATTRIBUTE(x) __has_attribute(x)
#else
#define HAVE_ATTRIBUTE(x) 0
#endif
#if HAVE_ATTRIBUTE(aligned) || (defined(__GNUC__) && !defined(__clang__))
#define DATA_ALIGN_ATTRIBUTE __attribute__((aligned(4)))
#else
#define DATA_ALIGN_ATTRIBUTE
#endif

// automatically configure network
#define TF_NUM_INPUTS 4
#define TF_NUM_OUTPUTS 4
#define TF_NUM_OPS 2
#define TF_OP_SOFTMAX
#define TF_OP_FULLYCONNECTED



/** model size = 5048 bytes **/
const unsigned char RedNeuronal[] DATA_ALIGN_ATTRIBUTE  ={0x1c, 0x00, 0x00, 0x00, 0x54, 0x46, 0x4c, 0x33, 0x14, 0x00, 0x20, 0x00, 0x1c, 0x00, 0x18, 0x00, 0x14, 0x00, 0x10, 0x00, 0x0c, 0x00, 0x00, 0x00, 0x08, 0x00, 0x04, 0x00, 0x14, 0x00, 0x00, 0x00, 0x1c, 0x00, 0x00, 0x00, 0x98, 0x00, 0x00, 0x00, 0xf0, 0x00, 0x00, 0x00, 0xd8, 0x0d, 0x00, 0x00, 0xe8, 0x0d, 0x00, 0x00, 0xe4, 0x13, 0x00, 0x00, 0x03, 0x00, 0x00, 0x00, 0x01, 0x00, 0x00, 0x00, 0x10, 0x00, 0x00, 0x00, 0x00, 0x00, 0x0a, 0x00, 0x10, 0x00, 0x0c, 0x00, 0x08, 0x00, 0x04, 0x00, 0x0a, 0x00, 0x00, 0x00, 0x0c, 0x00, 0x00, 0x00, 0x1c, 0x00, 0x00, 0x00, 0x3c, 0x00, 0x00, 0x00, 0x0f, 0x00, 0x00, 0x00, 0x73, 0x65, 0x72, 0x76, 0x69, 0x6e, 0x67, 0x5f, 0x64, 0x65, 0x66, 0x61, 0x75, 0x6c, 0x74, 0x00, 0x01, 0x00, 0x00, 0x00, 0x04, 0x00, 0x00, 0x00, 0x90, 0xff, 0xff, 0xff, 0x0a, 0x00, 0x00, 0x00, 0x04, 0x00, 0x00, 0x00, 0x08, 0x00, 0x00, 0x00, 0x64, 0x65, 0x6e, 0x73, 0x65, 0x5f, 0x33, 0x30, 0x00, 0x00, 0x00, 0x00, 0x01, 0x00, 0x00, 0x00, 0x04, 0x00, 0x00, 0x00, 0x0e, 0xf2, 0xff, 0xff, 0x04, 0x00, 0x00, 0x00, 0x0e, 0x00, 0x00, 0x00, 0x64, 0x65, 0x6e, 0x73, 0x65, 0x5f, 0x32, 0x38, 0x5f, 0x69, 0x6e, 0x70, 0x75, 0x74, 0x00, 0x00, 0x02, 0x00, 0x00, 0x00, 0x34, 0x00, 0x00, 0x00, 0x04, 0x00, 0x00, 0x00, 0xdc, 0xff, 0xff, 0xff, 0x0d, 0x00, 0x00, 0x00, 0x04, 0x00, 0x00, 0x00, 0x13, 0x00, 0x00, 0x00, 0x43, 0x4f, 0x4e, 0x56, 0x45, 0x52, 0x53, 0x49, 0x4f, 0x4e, 0x5f, 0x4d, 0x45, 0x54, 0x41, 0x44, 0x41, 0x54, 0x41, 0x00, 0x08, 0x00, 0x0c, 0x00, 0x08, 0x00, 0x04, 0x00, 0x08, 0x00, 0x00, 0x00, 0x0c, 0x00, 0x00, 0x00, 0x04, 0x00, 0x00, 0x00, 0x13, 0x00, 0x00, 0x00, 0x6d, 0x69, 0x6e, 0x5f, 0x72, 0x75, 0x6e, 0x74, 0x69, 0x6d, 0x65, 0x5f, 0x76, 0x65, 0x72, 0x73, 0x69, 0x6f, 0x6e, 0x00, 0x0e, 0x00, 0x00, 0x00, 0xe4, 0x0c, 0x00, 0x00, 0xdc, 0x0c, 0x00, 0x00, 0xbc, 0x0c, 0x00, 0x00, 0x6c, 0x0c, 0x00, 0x00, 0xdc, 0x0b, 0x00, 0x00, 0xcc, 0x09, 0x00, 0x00, 0xbc, 0x01, 0x00, 0x00, 0xac, 0x00, 0x00, 0x00, 0xa4, 0x00, 0x00, 0x00, 0x9c, 0x00, 0x00, 0x00, 0x94, 0x00, 0x00, 0x00, 0x8c, 0x00, 0x00, 0x00, 0x6c, 0x00, 0x00, 0x00, 0x04, 0x00, 0x00, 0x00, 0xc2, 0xf2, 0xff, 0xff, 0x04, 0x00, 0x00, 0x00, 0x58, 0x00, 0x00, 0x00, 0x0c, 0x00, 0x00, 0x00, 0x08, 0x00, 0x0e, 0x00, 0x08, 0x00, 0x04, 0x00, 0x08, 0x00, 0x00, 0x00, 0x10, 0x00, 0x00, 0x00, 0x28, 0x00, 0x00, 0x00, 0x00, 0x00, 0x06, 0x00, 0x08, 0x00, 0x04, 0x00, 0x06, 0x00, 0x00, 0x00, 0x04, 0x00, 0x00, 0x00, 0x01, 0x00, 0x00, 0x00, 0xea, 0x03, 0x00, 0x00, 0x00, 0x00, 0x0a, 0x00, 0x10, 0x00, 0x0c, 0x00, 0x08, 0x00, 0x04, 0x00, 0x0a, 0x00, 0x00, 0x00, 0x02, 0x00, 0x00, 0x00, 0x02, 0x00, 0x00, 0x00, 0x04, 0x00, 0x00, 0x00, 0x06, 0x00, 0x00, 0x00, 0x32, 0x2e, 0x31, 0x35, 0x2e, 0x30, 0x00, 0x00, 0x26, 0xf3, 0xff, 0xff, 0x04, 0x00, 0x00, 0x00, 0x10, 0x00, 0x00, 0x00, 0x31, 0x2e, 0x35, 0x2e, 0x30, 0x00, 0x00, 0x00, 0x00, 0x00, 0x00, 0x00, 0x00, 0x00, 0x00, 0x00, 0xf8, 0xed, 0xff, 0xff, 0xfc, 0xed, 0xff, 0xff, 0x00, 0xee, 0xff, 0xff, 0x04, 0xee, 0xff, 0xff, 0x52, 0xf3, 0xff, 0xff, 0x04, 0x00, 0x00, 0x00, 0x00, 0x01, 0x00, 0x00, 0xea, 0xd0, 0x1a, 0x3f, 0x02, 0x9c, 0x33, 0xbe, 0xc0, 0x62, 0x0b, 0x3f, 0x93, 0x29, 0x1f, 0xc0, 0x35, 0x87, 0xf8, 0xbf, 0xa5, 0xe1, 0x24, 0x3f, 0x54, 0x7c, 0x3a, 0x3f, 0x99, 0x86, 0x7b, 0xbe, 0x98, 0x6f, 0x9f, 0xbe, 0xb3, 0x51, 0x23, 0xc0, 0x0c, 0x81, 0x01, 0x3f, 0xff, 0x29, 0x0f, 0xc0, 0x3f, 0x0d, 0x80, 0x3e, 0xdc, 0xed, 0x8a, 0xbe, 0x90, 0x31, 0xdb, 0xbe, 0x45, 0x96, 0x95, 0xbe, 0x82, 0x90, 0xbd, 0xbf, 0xbf, 0xa8, 0x02, 0x3f, 0x7f, 0xa8, 0xca, 0xbf, 0xc8, 0x14, 0x98, 0x3f, 0x54, 0x85, 0x04, 0x3f, 0xbc, 0x9c, 0x93, 0x3e, 0xd0, 0x48, 0x20, 0x3f, 0x2e, 0x4f, 0xbd, 0xbe, 0x0d, 0x64, 0xe4, 0xbe, 0x46, 0xeb, 0x90, 0x3f, 0x30, 0xdd, 0x27, 0x3f, 0x91, 0x4e, 0xca, 0x3f, 0x77, 0xfa, 0xfc, 0x3d, 0xdc, 0x3e, 0xa9, 0xbd, 0xb8, 0x92, 0x17, 0xbe, 0xeb, 0x46, 0xa8, 0x3e, 0xad, 0x4f, 0x02, 0x3f, 0xfb, 0x3a, 0x4e, 0xbe, 0xef, 0xc5, 0x8a, 0x3e, 0x04, 0x1c, 0x9f, 0x3d, 0xcc, 0xa1, 0xd8, 0x3e, 0xa6, 0x50, 0xaf, 0x3e, 0xcc, 0x9b, 0x2f, 0x3f, 0xd5, 0x49, 0x20, 0xc0, 0xd9, 0x0e, 0x06, 0x3f, 0x95, 0x17, 0xd0, 0xbe, 0xb3, 0x4a, 0x46, 0x3f, 0x99, 0x6e, 0x52, 0xbe, 0x28, 0x79, 0xf4, 0xbe, 0xfe, 0x6b, 0x4a, 0xbd, 0xf4, 0xaf, 0xf9, 0x3e, 0x99, 0xcc, 0xde, 0x3b, 0x1c, 0x92, 0xa8, 0x3f, 0xac, 0x81, 0x55, 0x3c, 0xfc, 0x1d, 0x40, 0xbe, 0x7c, 0x66, 0x08, 0xbf, 0xe0, 0x38, 0x27, 0xbf, 0x95, 0x59, 0xc2, 0xbf, 0xa2, 0xe2, 0xf7, 0xbf, 0x79, 0xc2, 0xa9, 0x3f, 0x91, 0x55, 0xc9, 0xbd, 0x23, 0x2a, 0x51, 0xbf, 0xe3, 0x6f, 0x0d, 0xc0, 0xb1, 0x7c, 0x13, 0xbf, 0x97, 0xcf, 0xad, 0xbe, 0x05, 0x05, 0xcc, 0xbe, 0xb4, 0xd5, 0x63, 0x3e, 0xca, 0xaa, 0xf6, 0x3e, 0x5e, 0xf4, 0xff, 0xff, 0x04, 0x00, 0x00, 0x00, 0x00, 0x08, 0x00, 0x00, 0x0f, 0x13, 0xe2, 0x3f, 0x22, 0xfb, 0xb8, 0x3f, 0x55, 0x24, 0xc5, 0x3f, 0xe5, 0x15, 0x2d, 0x3f, 0x38, 0xd5, 0x5e, 0xbf, 0xce, 0xb8, 0x3d, 0x3f, 0xcc, 0xc8, 0xa8, 0xbe, 0x70, 0x60, 0xcc, 0xbc, 0xfb, 0x2b, 0x19, 0xbe, 0xa2, 0x49, 0x65, 0xbf, 0xc9, 0xde, 0x85, 0x3f, 0x01, 0xb7, 0xab, 0x3e, 0xee, 0x67, 0x95, 0x3e, 0xd8, 0x66, 0x99, 0x3f, 0x59, 0x17, 0x7f, 0x3f, 0xee, 0x0b, 0xdd, 0xbd, 0xc5, 0xa9, 0xba, 0xbe, 0x78, 0xc0, 0x59, 0x3f, 0x9c, 0xeb, 0x0c, 0xbf, 0x17, 0xec, 0xab, 0x3e, 0x57, 0xe0, 0xd4, 0xbe, 0x00, 0x95, 0xf0, 0x3b, 0xdf, 0x18, 0xcf, 0x3f, 0xde, 0x8f, 0xad, 0x3e, 0xc6, 0xed, 0xaf, 0x3f, 0xce, 0xae, 0x9e, 0xbe, 0x2a, 0xc4, 0xcc, 0x3f, 0xc5, 0x7c, 0xcd, 0x3f, 0xe4, 0x2e, 0xa8, 0x3f, 0xc1, 0xf1, 0x85, 0x3f, 0x82, 0xc4, 0x38, 0xbf, 0x28, 0xa1, 0x51, 0x3e, 0xfc, 0x1d, 0xd4, 0x3c, 0x3b, 0xc2, 0xe2, 0xbd, 0xfd, 0x7a, 0xb8, 0xbd, 0x37, 0x9c, 0x96, 0x3e, 0xe5, 0x4f, 0x26, 0xbe, 0x6b, 0x2c, 0x1d, 0xbd, 0x3e, 0xec, 0x74, 0xbe, 0x35, 0xa6, 0xa9, 0x3e, 0x39, 0x7d, 0x00, 0x3e, 0xc0, 0xb2, 0x4b, 0xbd, 0xb1, 0x08, 0x34, 0xbd, 0x53, 0x14, 0x1d, 0xbe, 0x43, 0x3b, 0xcc, 0xbd, 0x97, 0x8c, 0x80, 0xbe, 0x0d, 0x49, 0x4f, 0xbe, 0xd7, 0x18, 0x95, 0x3e, 0xc8, 0x35, 0xa8, 0x3d, 0x0c, 0xda, 0x9f, 0xbe, 0x16, 0xa3, 0xa3, 0xbe, 0x72, 0x1c, 0x38, 0x3e, 0xab, 0x8c, 0xe7, 0x3d, 0xa9, 0xc7, 0x9e, 0x3e, 0x35, 0xb9, 0x8e, 0x3e, 0xff, 0x4e, 0xa9, 0x3e, 0x0b, 0x0d, 0x30, 0x3c, 0x78, 0xdd, 0x57, 0x3e, 0x53, 0xe2, 0x63, 0x3e, 0xc3, 0x49, 0x90, 0xbe, 0x2f, 0x64, 0x93, 0xbe, 0xab, 0x22, 0x46, 0xbe, 0x96, 0x03, 0x7b, 0xbe, 0x1e, 0xda, 0xca, 0x3d, 0x80, 0xf0, 0x79, 0x3f, 0xb0, 0xa4, 0x3f, 0x3f, 0x5a, 0x32, 0x6d, 0x3f, 0x63, 0x1f, 0x88, 0xbe, 0xb7, 0x87, 0x4c, 0x3e, 0x4b, 0x06, 0x63, 0x3f, 0x20, 0xa9, 0x17, 0x3c, 0xfd, 0xd4, 0x8a, 0xbe, 0xc9, 0xf0, 0x15, 0x3f, 0xb5, 0xb4, 0xec, 0xbc, 0xf8, 0x28, 0x86, 0x3f, 0x32, 0x3d, 0x3f, 0x3e, 0x8a, 0xd0, 0x27, 0x3f, 0x00, 0xe4, 0x2e, 0x3f, 0x4a, 0x09, 0xa2, 0x3f, 0x91, 0xa8, 0x23, 0x3f, 0x51, 0x14, 0x22, 0xbd, 0xee, 0xc4, 0x84, 0x3f, 0xd2, 0xb9, 0xb2, 0x3e, 0x00, 0x44, 0x43, 0x3b, 0xf6, 0x93, 0xa1, 0x3e, 0x30, 0xcb, 0x0f, 0x3d, 0x42, 0xea, 0x46, 0x3f, 0x04, 0x9a, 0x0f, 0x3f, 0x91, 0xfc, 0x17, 0x3f, 0x22, 0x1a, 0xe3, 0x3d, 0xeb, 0x58, 0x87, 0x3f, 0x90, 0xf6, 0x40, 0x3f, 0xa7, 0x67, 0x4c, 0x3f, 0xa8, 0xf1, 0x78, 0x3f, 0xc8, 0x03, 0x77, 0x3e, 0x5a, 0x5a, 0xc0, 0xbd, 0x23, 0x97, 0x54, 0xbf, 0xa9, 0x58, 0x3c, 0xbf, 0x9d, 0x9b, 0x25, 0xbf, 0x6c, 0x39, 0xcd, 0xbe, 0x79, 0xa1, 0x64, 0x3f, 0x12, 0xf7, 0x46, 0xbd, 0x6b, 0x6e, 0x20, 0xbe, 0x29, 0x3c, 0x91, 0xbe, 0x6b, 0x38, 0xe4, 0x3e, 0xbc, 0x98, 0x86, 0x3f, 0xe3, 0x24, 0x16, 0x3e, 0x41, 0xa3, 0xb3, 0xbe, 0x6e, 0x42, 0xb9, 0x3e, 0xfc, 0x4c, 0x9d, 0xbf, 0x38, 0x1e, 0x30, 0xbf, 0x31, 0x08, 0x4a, 0x3f, 0x31, 0x61, 0x8b, 0x3f, 0xaa, 0xf8, 0x6e, 0xbd, 0xf6, 0x7e, 0x94, 0x3f, 0x00, 0x11, 0xeb, 0x3b, 0xb6, 0x72, 0x4a, 0x3f, 0xef, 0x7e, 0x51, 0xbe, 0xf2, 0x8e, 0x69, 0xbf, 0xf2, 0xf5, 0x01, 0x3f, 0x12, 0xde, 0x25, 0xbf, 0x5f, 0x2c, 0xce, 0x3d, 0x56, 0xed, 0x52, 0xbf, 0xfc, 0x7b, 0x5c, 0xbf, 0x20, 0xcc, 0x4b, 0xbf, 0x87, 0xe2, 0x59, 0xbf, 0xf5, 0x3a, 0x47, 0x3f, 0x47, 0x8e, 0x95, 0x3d, 0x79, 0xd1, 0x30, 0xbf, 0x0f, 0x04, 0xd7, 0xbe, 0xfe, 0xb3, 0x21, 0xbf, 0x75, 0x57, 0x7a, 0xbf, 0x8f, 0x11, 0xed, 0x3e, 0x1f, 0x0a, 0xb4, 0xbd, 0x10, 0xf3, 0xa2, 0xbd, 0x91, 0x6f, 0x1c, 0xbe, 0x55, 0xea, 0x5e, 0x3f, 0x18, 0x99, 0x17, 0x3f, 0xc5, 0x1d, 0xf6, 0xbe, 0xe6, 0xb8, 0x65, 0xbe, 0x5f, 0xb9, 0x28, 0x3f, 0x68, 0x1e, 0x71, 0xbf, 0x3b, 0x75, 0x5e, 0xbe, 0xd2, 0x77, 0x0a, 0x3f, 0x1a, 0x50, 0x80, 0x3f, 0x43, 0x3c, 0x88, 0x3e, 0xdc, 0x36, 0x6e, 0x3f, 0xcd, 0x8a, 0x9a, 0xbe, 0x04, 0x2b, 0x23, 0x3f, 0xc4, 0x67, 0xad, 0x3d, 0x9f, 0x78, 0x14, 0xbf, 0x12, 0xe0, 0xb2, 0x3e, 0x54, 0xf3, 0x68, 0xbf, 0x30, 0x5a, 0x65, 0xbe, 0x57, 0xd1, 0x44, 0xbf, 0x24, 0xd6, 0x3c, 0xbf, 0x41, 0x83, 0xa6, 0xbe, 0xea, 0x04, 0x02, 0xbf, 0xca, 0x27, 0xfb, 0x3e, 0xda, 0x81, 0xca, 0x3d, 0xb5, 0xf6, 0xd3, 0xbd, 0x4f, 0x11, 0xfd, 0xbd, 0xbe, 0x49, 0xef, 0xbe, 0x20, 0xd5, 0x1f, 0xbf, 0xf2, 0xeb, 0x7a, 0x3f, 0xd2, 0xfa, 0xa0, 0x3e, 0x49, 0xb1, 0x97, 0x3e, 0xdb, 0x73, 0x9e, 0xbe, 0xea, 0x4c, 0x15, 0x3e, 0x69, 0x57, 0x6c, 0x3f, 0x5e, 0x07, 0x43, 0xbb, 0x8b, 0x9e, 0x81, 0xbe, 0x16, 0xc0, 0x03, 0x3f, 0xfc, 0x6f, 0xd9, 0xbe, 0x3e, 0xa8, 0x91, 0xbe, 0x55, 0xbd, 0x19, 0x3f, 0xee, 0x93, 0x2d, 0x3f, 0x52, 0x6c, 0x69, 0x3e, 0x20, 0x99, 0x3d, 0x3f, 0x4c, 0x96, 0x4b, 0xbe, 0xd3, 0x54, 0xd9, 0x3e, 0x28, 0x54, 0x01, 0xbd, 0xa9, 0x05, 0x90, 0xbd, 0x46, 0x80, 0xf3, 0x3e, 0x56, 0x0d, 0xc2, 0xbd, 0xcf, 0xab, 0x59, 0x3e, 0x5e, 0x02, 0xb6, 0xbd, 0x1f, 0xe1, 0xbc, 0xbe, 0x21, 0xc8, 0xaa, 0xbe, 0x64, 0x07, 0x68, 0x3d, 0x1d, 0xb7, 0x74, 0x3f, 0x95, 0xd9, 0xd2, 0xbb, 0xfc, 0x90, 0x5e, 0xbf, 0x9e, 0xdd, 0x3b, 0xbf, 0x10, 0x87, 0x34, 0xbf, 0x3b, 0xba, 0xfd, 0xbe, 0x35, 0xc2, 0xca, 0x3f, 0xf0, 0xfa, 0x3f, 0x3f, 0x3e, 0x51, 0x7f, 0x3e, 0x84, 0x5e, 0xe6, 0xbd, 0x34, 0xcb, 0x40, 0x3f, 0x66, 0xcf, 0xbb, 0x3f, 0x1b, 0x5a, 0x53, 0x3e, 0x1f, 0x2d, 0x24, 0xbe, 0x23, 0xb3, 0x23, 0x3f, 0x50, 0x03, 0x2d, 0xbf, 0xbe, 0x07, 0x06, 0x3e, 0xa3, 0x43, 0x8b, 0x3f, 0x5b, 0x2a, 0xde, 0x3f, 0xfc, 0xe2, 0xcb, 0x3e, 0x13, 0x8f, 0x82, 0x3f, 0x86, 0xf0, 0x85, 0xbe, 0x53, 0x88, 0x80, 0x3f, 0x0c, 0x46, 0x89, 0xbe, 0x33, 0x70, 0x22, 0xbf, 0x7a, 0x89, 0x2a, 0x3f, 0xe3, 0xf2, 0x14, 0xbf, 0xcd, 0x81, 0xd0, 0x3d, 0xc7, 0x3d, 0x29, 0xbf, 0x61, 0x9d, 0x95, 0xbe, 0x58, 0x7f, 0x23, 0xbf, 0x3b, 0x7c, 0x99, 0xbd, 0x6b, 0x5c, 0xcb, 0x3f, 0x2c, 0x10, 0x4c, 0xbe, 0x16, 0x2a, 0x8a, 0x3f, 0x82, 0x65, 0x70, 0x3f, 0x5e, 0xe3, 0x8e, 0x3f, 0xa8, 0xce, 0x7e, 0x3f, 0xd4, 0x84, 0x84, 0xbf, 0x60, 0x89, 0xe6, 0xbd, 0x90, 0x14, 0x50, 0xbe, 0x98, 0x07, 0x6f, 0x3d, 0xe5, 0x0b, 0x15, 0xbf, 0xfa, 0x19, 0xbe, 0xbf, 0x02, 0xb1, 0x82, 0x3e, 0xb2, 0xf5, 0x17, 0x3e, 0x93, 0x35, 0x84, 0xbe, 0xaa, 0xb2, 0x4b, 0x3f, 0x71, 0x6d, 0x83, 0x3f, 0x9a, 0x05, 0x0c, 0xbf, 0x83, 0xdb, 0x77, 0xbf, 0xe8, 0x46, 0xbd, 0x3e, 0x59, 0x82, 0x71, 0xbf, 0x53, 0x4f, 0xa9, 0x3e, 0x86, 0xea, 0x8b, 0xbf, 0x6b, 0x29, 0xaf, 0xbe, 0x09, 0xcf, 0x45, 0x3f, 0x69, 0x74, 0xc2, 0xbe, 0x89, 0x3c, 0x71, 0x3f, 0xe9, 0xec, 0xb2, 0xbe, 0x48, 0xa1, 0x96, 0x3f, 0xea, 0xca, 0x41, 0x3f, 0x36, 0xb6, 0x99, 0x3f, 0xe1, 0xf1, 0x7d, 0x3f, 0x8d, 0xad, 0x92, 0xbf, 0x85, 0xae, 0xb7, 0xbe, 0x2e, 0x1d, 0x36, 0x3e, 0xf4, 0x14, 0x8a, 0xbe, 0x5c, 0xdc, 0xa4, 0xbe, 0xb0, 0xa5, 0x73, 0xbe, 0x50, 0x1d, 0x81, 0xbd, 0xbc, 0xdc, 0x80, 0xbe, 0xd1, 0xe9, 0x96, 0x3e, 0x63, 0x37, 0x61, 0xbe, 0x07, 0xc9, 0x61, 0xbe, 0x7e, 0xa9, 0x2c, 0x3e, 0x00, 0x47, 0xf3, 0xbd, 0xdc, 0x91, 0x81, 0xbe, 0x06, 0x7d, 0x21, 0x3e, 0xc4, 0x35, 0x8e, 0xbe, 0xb2, 0xf7, 0x3e, 0x3e, 0xb4, 0x54, 0x0e, 0x3e, 0x13, 0x3b, 0x88, 0x3e, 0x00, 0x96, 0x7c, 0xbe, 0x6c, 0x22, 0xac, 0xbe, 0x61, 0xc7, 0xab, 0x3e, 0x2b, 0x40, 0x00, 0x3e, 0x3e, 0x00, 0x0b, 0x3e, 0x7e, 0xa9, 0x1e, 0x3e, 0xf1, 0x25, 0xb0, 0x3e, 0x1c, 0x7b, 0xb9, 0xbd, 0xbc, 0x16, 0x30, 0x3e, 0xea, 0xa1, 0x52, 0x3e, 0xd8, 0xc9, 0x81, 0xbe, 0xf6, 0x9c, 0x4d, 0x3e, 0x6f, 0x06, 0x30, 0xbe, 0xb1, 0x85, 0x73, 0xbe, 0x9a, 0x99, 0x5f, 0x3e, 0xf2, 0xbc, 0x85, 0xbf, 0xc2, 0xac, 0xac, 0xbf, 0x4b, 0x7c, 0x97, 0xbf, 0xaf, 0x45, 0x92, 0xbd, 0xaf, 0xb9, 0x8f, 0x3f, 0x4a, 0x2a, 0x88, 0x3e, 0x22, 0x49, 0x5c, 0x3e, 0xdc, 0x96, 0xd6, 0xbd, 0xf5, 0xf9, 0xe0, 0x3d, 0x7e, 0xc5, 0x1a, 0x3f, 0xf3, 0x11, 0x80, 0xbe, 0x76, 0x4f, 0x39, 0x3e, 0xe6, 0x1b, 0x13, 0x3f, 0x0f, 0xc3, 0xb2, 0xbf, 0x4a, 0xb9, 0x35, 0xbf, 0xaa, 0x59, 0x89, 0x3f, 0x48, 0xbe, 0x63, 0x3f, 0x51, 0x96, 0xa4, 0x3e, 0x5a, 0x90, 0x92, 0x3f, 0xd2, 0x12, 0x24, 0x3e, 0x3f, 0xf2, 0x1d, 0x3f, 0x25, 0x67, 0x8b, 0x3e, 0xd1, 0xfa, 0x8e, 0xbf, 0x70, 0x2b, 0xf2, 0x3e, 0x39, 0xb5, 0x89, 0xbf, 0xed, 0x38, 0x39, 0x3e, 0x55, 0xb7, 0x9b, 0xbf, 0x71, 0xca, 0x5e, 0xbf, 0x94, 0x2d, 0x9c, 0xbf, 0x41, 0xe3, 0x7f, 0xbf, 0x84, 0x58, 0x9c, 0x3f, 0x1a, 0xe2, 0x87, 0xbe, 0xcc, 0x77, 0x27, 0xbf, 0x1e, 0x91, 0x14, 0xbf, 0xa5, 0x70, 0x16, 0xbf, 0xeb, 0x20, 0x4d, 0xbf, 0xfb, 0x66, 0xc5, 0x3f, 0xeb, 0xab, 0x2c, 0x3f, 0x51, 0x47, 0x81, 0x3e, 0x7e, 0xfa, 0x3d, 0x3e, 0xcc, 0xe1, 0x86, 0x3f, 0xec, 0x83, 0xc8, 0x3f, 0x9e, 0x59, 0x21, 0x3e, 0x55, 0x71, 0x14, 0xbe, 0x33, 0x38, 0x75, 0x3f, 0xbb, 0xed, 0x2c, 0xbf, 0x5d, 0xd9, 0x07, 0xbf, 0xf7, 0xc5, 0x92, 0x3f, 0xa8, 0xb3, 0xd4, 0x3f, 0x7b, 0xd6, 0xc7, 0x3e, 0xa4, 0x85, 0xc5, 0x3f, 0xe6, 0xb4, 0x50, 0xbe, 0x9e, 0xb1, 0xac, 0x3f, 0xc2, 0x51, 0x5a, 0x3e, 0x27, 0xf9, 0x19, 0xbf, 0xfa, 0x2a, 0xc2, 0x3e, 0xcc, 0x75, 0x2c, 0xbe, 0xac, 0x7b, 0xa6, 0x3e, 0xb2, 0x21, 0x86, 0xbe, 0x1a, 0xab, 0x1b, 0xbf, 0x51, 0x00, 0xc8, 0xbe, 0xf5, 0x83, 0x25, 0xbf, 0xc5, 0x84, 0xc1, 0x3f, 0x3f, 0x02, 0x5a, 0xbe, 0x09, 0xf9, 0xa3, 0xbf, 0x97, 0xe1, 0x91, 0xbf, 0xd6, 0x18, 0x97, 0xbf, 0xa3, 0xa7, 0x94, 0x3e, 0x71, 0x6d, 0x9d, 0x3f, 0xe2, 0xf3, 0x11, 0x3f, 0xe9, 0x8d, 0x8f, 0x3e, 0x1b, 0x12, 0x81, 0xbe, 0x8d, 0x95, 0x9d, 0x3e, 0xb8, 0xa6, 0x9d, 0x3f, 0xfa, 0x7e, 0xc7, 0xbd, 0x67, 0x19, 0x91, 0xbe, 0x60, 0xbb, 0x41, 0x3f, 0xe3, 0xa3, 0xab, 0xbf, 0x1c, 0x47, 0x08, 0xbf, 0xde, 0x56, 0x07, 0x3f, 0xef, 0x95, 0x83, 0x3f, 0x2e, 0xec, 0xe9, 0xbd, 0xce, 0x9c, 0x6c, 0x3f, 0xb5, 0xf9, 0xac, 0x3e, 0xe8, 0x08, 0x8f, 0x3f, 0xb6, 0xdc, 0x8e, 0xbe, 0x53, 0x95, 0x84, 0xbf, 0x25, 0x49, 0x00, 0x3f, 0xf8, 0xf5, 0xa4, 0xbf, 0x64, 0xe0, 0x30, 0x3d, 0x0a, 0xbd, 0x7c, 0xbf, 0x47, 0x31, 0xb1, 0xbf, 0x85, 0x27, 0xa1, 0xbf, 0xa8, 0xb9, 0x94, 0xbf, 0x3e, 0xf8, 0x7d, 0x3f, 0x13, 0x59, 0x6f, 0x3e, 0x5e, 0xcf, 0xe5, 0x3d, 0x55, 0x7f, 0xed, 0x3d, 0xee, 0xbb, 0xeb, 0xbd, 0x06, 0x71, 0x09, 0x3e, 0xa9, 0x29, 0x80, 0xbb, 0x53, 0x6c, 0x30, 0xbe, 0x68, 0xd2, 0x3d, 0x3d, 0x64, 0x23, 0xcf, 0x3d, 0xd2, 0x90, 0x87, 0xbe, 0x87, 0x05, 0x56, 0xbe, 0x4a, 0x6e, 0x0d, 0x3e, 0xa0, 0x8e, 0xd8, 0x3d, 0xd2, 0xdd, 0xf0, 0xbd, 0x1b, 0x27, 0xe6, 0xbd, 0xdf, 0xe2, 0x27, 0x3d, 0xd5, 0x1f, 0xaa, 0xbe, 0xa4, 0x74, 0xe4, 0xbd, 0xcc, 0xed, 0xfc, 0xbd, 0xdb, 0xeb, 0xed, 0xbd, 0xe6, 0x18, 0x14, 0x3e, 0xa5, 0xc5, 0x02, 0x3e, 0xe1, 0x07, 0x19, 0xbe, 0x37, 0x6b, 0x15, 0x3e, 0x8c, 0xfe, 0xb8, 0x3d, 0xed, 0x21, 0xa1, 0xbe, 0x75, 0x97, 0x9b, 0x3e, 0x40, 0x50, 0x7b, 0x3d, 0x6e, 0xcb, 0x92, 0xbe, 0x2b, 0xae, 0x08, 0xbc, 0x0a, 0x18, 0x46, 0xbe, 0xde, 0x4f, 0x59, 0xbd, 0x19, 0xc1, 0xca, 0x3d, 0x3d, 0x7a, 0xa9, 0xbe, 0x37, 0x86, 0x8f, 0xbd, 0x40, 0xe3, 0x0c, 0x3e, 0xa1, 0xb8, 0xb0, 0x3d, 0x45, 0x7d, 0x20, 0xbe, 0x0c, 0xd2, 0xbf, 0xbe, 0xfc, 0x0a, 0x17, 0xbe, 0xb4, 0x7c, 0x9d, 0x3d, 0x1b, 0xee, 0x96, 0xbe, 0xbe, 0x7a, 0x94, 0xbe, 0x9e, 0x81, 0x4b, 0x3d, 0x47, 0x5e, 0x8b, 0xbe, 0xc4, 0x94, 0x66, 0xbe, 0x4a, 0x37, 0xb2, 0xbc, 0x40, 0x98, 0x73, 0x3d, 0x40, 0x27, 0xd6, 0x3c, 0x84, 0x26, 0xf0, 0xbd, 0xac, 0x38, 0x81, 0xbe, 0x6b, 0x0e, 0x7f, 0x3e, 0x9f, 0x13, 0x9c, 0xbe, 0x3b, 0xa3, 0x18, 0x3c, 0x18, 0x89, 0x7c, 0x3d, 0xd2, 0x68, 0xb7, 0x3d, 0xf4, 0x93, 0x62, 0xbe, 0xb0, 0x3b, 0xb9, 0x3c, 0x5c, 0x41, 0xeb, 0xbd, 0x52, 0xb3, 0x8c, 0x3d, 0x1a, 0x6b, 0x91, 0xbe, 0xe3, 0x03, 0x9e, 0x3e, 0xf2, 0x1a, 0x35, 0x3e, 0xb5, 0xa1, 0x5b, 0x3e, 0x2c, 0x18, 0xb2, 0xbe, 0x80, 0x19, 0x0b, 0xbc, 0xd8, 0x90, 0x97, 0xbd, 0x0b, 0xb9, 0x91, 0xbe, 0xa6, 0x6b, 0x0d, 0x3e, 0xa1, 0x41, 0xab, 0x3e, 0xe0, 0x2d, 0x20, 0x3c, 0x57, 0x62, 0xaf, 0x3e, 0xbc, 0x25, 0xaa, 0xbe, 0x00, 0xa7, 0xd7, 0x3c, 0x50, 0xda, 0x1d, 0xbe, 0x9e, 0x66, 0xe4, 0xbd, 0x5e, 0x76, 0x2b, 0x3e, 0xe8, 0x8b, 0x48, 0xbe, 0xf8, 0x12, 0x09, 0x3d, 0x1a, 0x3a, 0x51, 0xbe, 0xf1, 0x2d, 0x7c, 0xbe, 0x5e, 0x35, 0x9d, 0xbe, 0x91, 0x5e, 0x8d, 0x3e, 0xb5, 0x1a, 0x00, 0xbe, 0x76, 0xf2, 0x47, 0x3e, 0xa4, 0xa6, 0x38, 0xbe, 0xfb, 0x27, 0x98, 0x3e, 0x4e, 0xfe, 0x2a, 0x3e, 0xc4, 0x54, 0xd5, 0x3d, 0x36, 0x4d, 0xe7, 0xbd, 0x00, 0xc6, 0x26, 0xbe, 0xda, 0x02, 0x97, 0xbe, 0x96, 0x94, 0xb4, 0xbe, 0x40, 0x02, 0x16, 0xbd, 0xd9, 0x03, 0xb2, 0x3e, 0x10, 0x7b, 0xaa, 0xbe, 0xc4, 0x80, 0xce, 0xbd, 0x82, 0x12, 0xa4, 0xbe, 0x47, 0x73, 0x87, 0xbd, 0x17, 0x4a, 0x44, 0xbe, 0xf0, 0xe0, 0x59, 0x3d, 0x22, 0xa5, 0x52, 0x3c, 0xb6, 0xe4, 0xb2, 0x3d, 0x9b, 0x77, 0xb2, 0x3e, 0x68, 0x4e, 0x01, 0xbe, 0xf3, 0x48, 0x4c, 0x3d, 0x8b, 0x99, 0x88, 0xbd, 0x86, 0x23, 0x2a, 0xbd, 0x6a, 0xda, 0x96, 0xbe, 0x0a, 0x8f, 0x3c, 0xbe, 0x05, 0x7e, 0x94, 0xbe, 0xea, 0x08, 0xe9, 0x3d, 0xe1, 0xb0, 0x0f, 0x3e, 0x96, 0xb7, 0xaf, 0xbd, 0xeb, 0xda, 0xb9, 0x3d, 0x6d, 0x66, 0x96, 0xbd, 0xfc, 0x1e, 0xa8, 0x3d, 0x33, 0xad, 0x39, 0x3e, 0x36, 0x40, 0x54, 0x3e, 0x4d, 0xc3, 0x95, 0xbe, 0x18, 0x99, 0xc8, 0xbd, 0xc9, 0xd6, 0xb4, 0x3d, 0x24, 0x7f, 0x71, 0xbe, 0x63, 0xf3, 0x20, 0x3e, 0xbe, 0x9d, 0x78, 0xbd, 0xb4, 0x4c, 0xc3, 0x3d, 0x5e, 0x94, 0x64, 0x3e, 0xcb, 0x5b, 0xc2, 0xbe, 0x30, 0x20, 0xf9, 0x3c, 0x6a, 0xfc, 0xff, 0xff, 0x04, 0x00, 0x00, 0x00, 0x00, 0x02, 0x00, 0x00, 0x6d, 0x6e, 0x48, 0x3f, 0xa6, 0xc5, 0x69, 0x3f, 0x95, 0x53, 0x88, 0x3f, 0x14, 0x5b, 0xa9, 0x3f, 0x62, 0x1b, 0x64, 0x3f, 0x99, 0x2f, 0x5f, 0x3f, 0x7a, 0x09, 0x3a, 0x3f, 0x60, 0x99, 0x93, 0x3f, 0x69, 0x72, 0x8f, 0x3f, 0xef, 0xa3, 0x89, 0x3f, 0xca, 0x9d, 0xa8, 0x3f, 0xab, 0x2f, 0xae, 0x3f, 0x35, 0xf0, 0x41, 0x3f, 0xb3, 0x82, 0xdf, 0x3e, 0x18, 0x3e, 0xa9, 0x3e, 0xbf, 0xb3, 0x35, 0x3f, 0x23, 0x77, 0x51, 0xbf, 0x9c, 0x65, 0x14, 0xbf, 0xb6, 0xd6, 0x76, 0xbf, 0x48, 0x56, 0xe8, 0xbe, 0xf8, 0x23, 0xb6, 0xbd, 0x21, 0x58, 0x13, 0x3f, 0xc5, 0x44, 0xb1, 0x3e, 0xda, 0x82, 0x8f, 0x3e, 0xef, 0x17, 0x48, 0xbe, 0xa2, 0xfb, 0x5c, 0xbe, 0x5c, 0xb9, 0x80, 0xbe, 0xc1, 0xac, 0xb1, 0xbe, 0xf8, 0xb5, 0xbc, 0xbd, 0xe0, 0x70, 0xbf, 0xbd, 0xf8, 0x30, 0x39, 0xbd, 0x28, 0x7e, 0x6e, 0xbd, 0x5b, 0x0b, 0x8a, 0xbe, 0x5a, 0x41, 0x44, 0x3e, 0xae, 0xa4, 0xe9, 0xbe, 0x2f, 0xc1, 0x0e, 0xbf, 0x75, 0x55, 0x50, 0xbf, 0xff, 0x13, 0x6a, 0xbf, 0xec, 0x0d, 0xdf, 0xbe, 0xa1, 0x8f, 0x59, 0xbf, 0x1d, 0x88, 0x88, 0x3f, 0x5b, 0x80, 0x24, 0x3f, 0x26, 0x0a, 0x6b, 0x3f, 0x75, 0xcd, 0x1d, 0x3f, 0xca, 0x63, 0x1b, 0xbe, 0xea, 0x69, 0x76, 0xbe, 0xe7, 0x53, 0x6a, 0xbe, 0x38, 0x8e, 0x36, 0xbd, 0xcb, 0x48, 0x9c, 0xbd, 0xf1, 0x92, 0x81, 0xbe, 0x57, 0x57, 0xbc, 0xbe, 0x20, 0x48, 0xe3, 0xbe, 0x29, 0xf9, 0x5d, 0x3f, 0xbe, 0x8b, 0x26, 0x3f, 0x57, 0x68, 0x31, 0x3f, 0x6f, 0xcf, 0x84, 0x3f, 0xfc, 0xe0, 0x8a, 0x3f, 0xe2, 0xf5, 0xa0, 0x3f, 0xa5, 0xe0, 0xbb, 0x3f, 0x11, 0xd0, 0x6c, 0x3f, 0x8a, 0x7f, 0x9f, 0xbe, 0x76, 0xbc, 0x1a, 0xbf, 0x03, 0x46, 0xf2, 0xbe, 0x94, 0xa1, 0x51, 0xbf, 0xa7, 0x48, 0x50, 0xbf, 0x62, 0xee, 0x22, 0xbf, 0xfb, 0xfe, 0x29, 0xbf, 0x45, 0x2c, 0xbc, 0xbe, 0x27, 0xb5, 0x56, 0x3f, 0xe7, 0xa8, 0x17, 0x3f, 0x77, 0x6d, 0x8a, 0x3f, 0x17, 0x14, 0x82, 0x3f, 0x7d, 0x65, 0x23, 0xbf, 0xbd, 0xfa, 0x6a, 0xbf, 0xc1, 0x54, 0x05, 0xbf, 0x5f, 0x80, 0xc1, 0xbe, 0xc5, 0x91, 0xce, 0xbe, 0x3e, 0xa0, 0x23, 0xbe, 0x8f, 0x6c, 0x68, 0xbe, 0xfc, 0xa6, 0xc1, 0xbe, 0x37, 0x40, 0x36, 0xbf, 0xec, 0x52, 0x2d, 0xbf, 0x7c, 0x65, 0x0d, 0xbf, 0x9e, 0x47, 0x06, 0xbf, 0x64, 0xe1, 0x84, 0xbd, 0x1c, 0x46, 0xa7, 0xbe, 0x40, 0x69, 0x87, 0x3b, 0x52, 0x05, 0x69, 0xbe, 0x53, 0x34, 0x7e, 0x3f, 0x6f, 0x65, 0x52, 0x3f, 0x4a, 0x14, 0xac, 0x3f, 0x55, 0xaf, 0x75, 0x3f, 0x11, 0x0e, 0xa9, 0x3d, 0xc4, 0xa6, 0xbf, 0xbd, 0x61, 0x7b, 0x49, 0xbf, 0xa0, 0xce, 0xa5, 0xbd, 0x26, 0x28, 0x84, 0x3f, 0xc6, 0x07, 0x89, 0x3f, 0x9e, 0x28, 0x2a, 0x3f, 0x74, 0x20, 0x54, 0x3f, 0x1f, 0x25, 0x1c, 0x3e, 0x16, 0xe8, 0xe4, 0xbe, 0x88, 0x5f, 0x81, 0xbe, 0x6d, 0x89, 0x79, 0xbc, 0xc4, 0x27, 0x80, 0x3f, 0x82, 0x36, 0x93, 0x3f, 0x20, 0xc8, 0x68, 0x3f, 0x70, 0xe7, 0x69, 0x3f, 0x8b, 0x00, 0x6c, 0x3f, 0x79, 0xa6, 0xa1, 0x3f, 0xb2, 0xbc, 0x8b, 0x3f, 0x60, 0xe6, 0x64, 0x3f, 0xef, 0x89, 0x3a, 0x3f, 0x58, 0xc9, 0x76, 0x3f, 0xfa, 0x0a, 0x96, 0x3f, 0x58, 0x8e, 0x3b, 0x3f, 0x78, 0xf3, 0x9a, 0x3f, 0x82, 0xc9, 0x2e, 0x3f, 0xfc, 0x6c, 0x29, 0x3f, 0x4b, 0xe7, 0xa6, 0x3f, 0x52, 0x4b, 0x2e, 0xbf, 0xcf, 0x38, 0x5f, 0xbf, 0x20, 0x0d, 0xf4, 0xbe, 0xfb, 0x88, 0x14, 0xbf, 0xc9, 0x3a, 0x13, 0xbd, 0xd9, 0x4b, 0xbc, 0xbd, 0x29, 0x8b, 0x0a, 0x3e, 0x3c, 0xac, 0x01, 0xbd, 0x76, 0xfe, 0xff, 0xff, 0x04, 0x00, 0x00, 0x00, 0x80, 0x00, 0x00, 0x00, 0x0f, 0x6c, 0x02, 0xbe, 0xdc, 0xd4, 0x00, 0xbe, 0x78, 0x6a, 0x22, 0xbe, 0x0a, 0x7d, 0x2b, 0xbe, 0x99, 0xf0, 0x16, 0x3f, 0xee, 0x8c, 0x34, 0x3f, 0x00, 0x00, 0x00, 0x00, 0x00, 0x00, 0x00, 0x00, 0xfc, 0x29, 0x9b, 0x3e, 0xfc, 0x84, 0x12, 0x3f, 0x03, 0x00, 0xa6, 0x3e, 0x00, 0x00, 0x00, 0x00, 0x03, 0x63, 0x35, 0x3f, 0x59, 0xc5, 0xeb, 0xbd, 0x1a, 0xca, 0xb7, 0x3c, 0x5c, 0xff, 0x35, 0x3f, 0x87, 0xab, 0x0d, 0x3f, 0x24, 0x78, 0x45, 0x3f, 0x81, 0xbf, 0x11, 0x3f, 0x00, 0x00, 0x00, 0x00, 0xf2, 0x02, 0x11, 0x3f, 0x00, 0x00, 0x00, 0x00, 0x5a, 0x8e, 0x05, 0xbe, 0xf8, 0xeb, 0xb5, 0x3e, 0xc7, 0x21, 0xf1, 0xbd, 0xcd, 0x0b, 0x07, 0x3d, 0x6d, 0x40, 0xd3, 0xbd, 0x6d, 0xe1, 0x0b, 0xbe, 0xc2, 0xa6, 0xf8, 0xbd, 0xb5, 0xe2, 0xdd, 0xbd, 0x83, 0xf6, 0x11, 0x3f, 0x59, 0x19, 0x90, 0xbc, 0x02, 0xff, 0xff, 0xff, 0x04, 0x00, 0x00, 0x00, 0x40, 0x00, 0x00, 0x00, 0x25, 0x14, 0x98, 0x3e, 0xca, 0x05, 0x45, 0xbc, 0x63, 0x97, 0x05, 0x3f, 0x73, 0x66, 0x46, 0x3e, 0xda, 0x02, 0x5f, 0x3e, 0xdf, 0x73, 0xd7, 0x3d, 0xd1, 0x71, 0xea, 0x3e, 0x36, 0x96, 0x9b, 0xbd, 0x20, 0x48, 0xd5, 0xbb, 0x52, 0x58, 0xb6, 0x3e, 0x64, 0xef, 0xe3, 0x3e, 0xeb, 0xae, 0xbe, 0x3e, 0xee, 0xdc, 0x7c, 0xbc, 0xe5, 0x7e, 0xf0, 0xbc, 0x00, 0x00, 0x00, 0x00, 0x56, 0x39, 0x93, 0xbc, 0x4e, 0xff, 0xff, 0xff, 0x04, 0x00, 0x00, 0x00, 0x10, 0x00, 0x00, 0x00, 0x0a, 0x23, 0x3e, 0x3e, 0xc2, 0x9c, 0xd8, 0xbe, 0x21, 0x07, 0x8c, 0x3e, 0xae, 0x63, 0x87, 0xbc, 0x20, 0xfa, 0xff, 0xff, 0x24, 0xfa, 0xff, 0xff, 0x0f, 0x00, 0x00, 0x00, 0x4d, 0x4c, 0x49, 0x52, 0x20, 0x43, 0x6f, 0x6e, 0x76, 0x65, 0x72, 0x74, 0x65, 0x64, 0x2e, 0x00, 0x01, 0x00, 0x00, 0x00, 0x14, 0x00, 0x00, 0x00, 0x00, 0x00, 0x0e, 0x00, 0x18, 0x00, 0x14, 0x00, 0x10, 0x00, 0x0c, 0x00, 0x08, 0x00, 0x04, 0x00, 0x0e, 0x00, 0x00, 0x00, 0x14, 0x00, 0x00, 0x00, 0x1c, 0x00, 0x00, 0x00, 0x24, 0x01, 0x00, 0x00, 0x28, 0x01, 0x00, 0x00, 0x2c, 0x01, 0x00, 0x00, 0x04, 0x00, 0x00, 0x00, 0x6d, 0x61, 0x69, 0x6e, 0x00, 0x00, 0x00, 0x00, 0x04, 0x00, 0x00, 0x00, 0xcc, 0x00, 0x00, 0x00, 0x84, 0x00, 0x00, 0x00, 0x50, 0x00, 0x00, 0x00, 0x14, 0x00, 0x00, 0x00, 0x00, 0x00, 0x0e, 0x00, 0x1a, 0x00, 0x14, 0x00, 0x10, 0x00, 0x0c, 0x00, 0x0b, 0x00, 0x04, 0x00, 0x0e, 0x00, 0x00, 0x00, 0x1c, 0x00, 0x00, 0x00, 0x00, 0x00, 0x00, 0x09, 0x1c, 0x00, 0x00, 0x00, 0x20, 0x00, 0x00, 0x00, 0x01, 0x00, 0x00, 0x00, 0x00, 0x00, 0x06, 0x00, 0x08, 0x00, 0x04, 0x00, 0x06, 0x00, 0x00, 0x00, 0x00, 0x00, 0x80, 0x3f, 0x01, 0x00, 0x00, 0x00, 0x0a, 0x00, 0x00, 0x00, 0x01, 0x00, 0x00, 0x00, 0x09, 0x00, 0x00, 0x00, 0x9a, 0xff, 0xff, 0xff, 0x10, 0x00, 0x00, 0x00, 0x00, 0x00, 0x00, 0x08, 0x0c, 0x00, 0x00, 0x00, 0x10, 0x00, 0x00, 0x00, 0xe8, 0xfa, 0xff, 0xff, 0x01, 0x00, 0x00, 0x00, 0x09, 0x00, 0x00, 0x00, 0x03, 0x00, 0x00, 0x00, 0x08, 0x00, 0x00, 0x00, 0x06, 0x00, 0x00, 0x00, 0x01, 0x00, 0x00, 0x00, 0xca, 0xff, 0xff, 0xff, 0x10, 0x00, 0x00, 0x00, 0x00, 0x00, 0x00, 0x08, 0x10, 0x00, 0x00, 0x00, 0x14, 0x00, 0x00, 0x00, 0xba, 0xff, 0xff, 0xff, 0x00, 0x00, 0x00, 0x01, 0x01, 0x00, 0x00, 0x00, 0x08, 0x00, 0x00, 0x00, 0x03, 0x00, 0x00, 0x00, 0x07, 0x00, 0x00, 0x00, 0x05, 0x00, 0x00, 0x00, 0x02, 0x00, 0x00, 0x00, 0x00, 0x00, 0x0e, 0x00, 0x16, 0x00, 0x00, 0x00, 0x10, 0x00, 0x0c, 0x00, 0x0b, 0x00, 0x04, 0x00, 0x0e, 0x00, 0x00, 0x00, 0x18, 0x00, 0x00, 0x00, 0x00, 0x00, 0x00, 0x08, 0x18, 0x00, 0x00, 0x00, 0x1c, 0x00, 0x00, 0x00, 0x00, 0x00, 0x06, 0x00, 0x08, 0x00, 0x07, 0x00, 0x06, 0x00, 0x00, 0x00, 0x00, 0x00, 0x00, 0x01, 0x01, 0x00, 0x00, 0x00, 0x07, 0x00, 0x00, 0x00, 0x03, 0x00, 0x00, 0x00, 0x00, 0x00, 0x00, 0x00, 0x04, 0x00, 0x00, 0x00, 0x03, 0x00, 0x00, 0x00, 0x01, 0x00, 0x00, 0x00, 0x0a, 0x00, 0x00, 0x00, 0x01, 0x00, 0x00, 0x00, 0x00, 0x00, 0x00, 0x00, 0x0b, 0x00, 0x00, 0x00, 0x40, 0x04, 0x00, 0x00, 0xcc, 0x03, 0x00, 0x00, 0x58, 0x03, 0x00, 0x00, 0xfc, 0x02, 0x00, 0x00, 0xac, 0x02, 0x00, 0x00, 0x5c, 0x02, 0x00, 0x00, 0x0c, 0x02, 0x00, 0x00, 0x74, 0x01, 0x00, 0x00, 0xdc, 0x00, 0x00, 0x00, 0x60, 0x00, 0x00, 0x00, 0x04, 0x00, 0x00, 0x00, 0x02, 0xfc, 0xff, 0xff, 0x00, 0x00, 0x00, 0x01, 0x14, 0x00, 0x00, 0x00, 0x1c, 0x00, 0x00, 0x00, 0x1c, 0x00, 0x00, 0x00, 0x0b, 0x00, 0x00, 0x00, 0x34, 0x00, 0x00, 0x00, 0x02, 0x00, 0x00, 0x00, 0xff, 0xff, 0xff, 0xff, 0x04, 0x00, 0x00, 0x00, 0xec, 0xfb, 0xff, 0xff, 0x19, 0x00, 0x00, 0x00, 0x53, 0x74, 0x61, 0x74, 0x65, 0x66, 0x75, 0x6c, 0x50, 0x61, 0x72, 0x74, 0x69, 0x74, 0x69, 0x6f, 0x6e, 0x65, 0x64, 0x43, 0x61, 0x6c, 0x6c, 0x3a, 0x30, 0x00, 0x00, 0x00, 0x02, 0x00, 0x00, 0x00, 0x01, 0x00, 0x00, 0x00, 0x04, 0x00, 0x00, 0x00, 0x5a, 0xfc, 0xff, 0xff, 0x00, 0x00, 0x00, 0x01, 0x14, 0x00, 0x00, 0x00, 0x1c, 0x00, 0x00, 0x00, 0x1c, 0x00, 0x00, 0x00, 0x0a, 0x00, 0x00, 0x00, 0x54, 0x00, 0x00, 0x00, 0x02, 0x00, 0x00, 0x00, 0xff, 0xff, 0xff, 0xff, 0x04, 0x00, 0x00, 0x00, 0x44, 0xfc, 0xff, 0xff, 0x3a, 0x00, 0x00, 0x00, 0x73, 0x65, 0x71, 0x75, 0x65, 0x6e, 0x74, 0x69, 0x61, 0x6c, 0x5f, 0x39, 0x2f, 0x64, 0x65, 0x6e, 0x73, 0x65, 0x5f, 0x33, 0x30, 0x2f, 0x4d, 0x61, 0x74, 0x4d, 0x75, 0x6c, 0x3b, 0x73, 0x65, 0x71, 0x75, 0x65, 0x6e, 0x74, 0x69, 0x61, 0x6c, 0x5f, 0x39, 0x2f, 0x64, 0x65, 0x6e, 0x73, 0x65, 0x5f, 0x33, 0x30, 0x2f, 0x42, 0x69, 0x61, 0x73, 0x41, 0x64, 0x64, 0x00, 0x00, 0x02, 0x00, 0x00, 0x00, 0x01, 0x00, 0x00, 0x00, 0x04, 0x00, 0x00, 0x00, 0xd2, 0xfc, 0xff, 0xff, 0x00, 0x00, 0x00, 0x01, 0x14, 0x00, 0x00, 0x00, 0x1c, 0x00, 0x00, 0x00, 0x1c, 0x00, 0x00, 0x00, 0x09, 0x00, 0x00, 0x00, 0x70, 0x00, 0x00, 0x00, 0x02, 0x00, 0x00, 0x00, 0xff, 0xff, 0xff, 0xff, 0x10, 0x00, 0x00, 0x00, 0xbc, 0xfc, 0xff, 0xff, 0x55, 0x00, 0x00, 0x00, 0x73, 0x65, 0x71, 0x75, 0x65, 0x6e, 0x74, 0x69, 0x61, 0x6c, 0x5f, 0x39, 0x2f, 0x64, 0x65, 0x6e, 0x73, 0x65, 0x5f, 0x32, 0x39, 0x2f, 0x4d, 0x61, 0x74, 0x4d, 0x75, 0x6c, 0x3b, 0x73, 0x65, 0x71, 0x75, 0x65, 0x6e, 0x74, 0x69, 0x61, 0x6c, 0x5f, 0x39, 0x2f, 0x64, 0x65, 0x6e, 0x73, 0x65, 0x5f, 0x32, 0x39, 0x2f, 0x52, 0x65, 0x6c, 0x75, 0x3b, 0x73, 0x65, 0x71, 0x75, 0x65, 0x6e, 0x74, 0x69, 0x61, 0x6c, 0x5f, 0x39, 0x2f, 0x64, 0x65, 0x6e, 0x73, 0x65, 0x5f, 0x32, 0x39, 0x2f, 0x42, 0x69, 0x61, 0x73, 0x41, 0x64, 0x64, 0x00, 0x00, 0x00, 0x02, 0x00, 0x00, 0x00, 0x01, 0x00, 0x00, 0x00, 0x10, 0x00, 0x00, 0x00, 0x66, 0xfd, 0xff, 0xff, 0x00, 0x00, 0x00, 0x01, 0x14, 0x00, 0x00, 0x00, 0x1c, 0x00, 0x00, 0x00, 0x1c, 0x00, 0x00, 0x00, 0x08, 0x00, 0x00, 0x00, 0x70, 0x00, 0x00, 0x00, 0x02, 0x00, 0x00, 0x00, 0xff, 0xff, 0xff, 0xff, 0x20, 0x00, 0x00, 0x00, 0x50, 0xfd, 0xff, 0xff, 0x55, 0x00, 0x00, 0x00, 0x73, 0x65, 0x71, 0x75, 0x65, 0x6e, 0x74, 0x69, 0x61, 0x6c, 0x5f, 0x39, 0x2f, 0x64, 0x65, 0x6e, 0x73, 0x65, 0x5f, 0x32, 0x38, 0x2f, 0x4d, 0x61, 0x74, 0x4d, 0x75, 0x6c, 0x3b, 0x73, 0x65, 0x71, 0x75, 0x65, 0x6e, 0x74, 0x69, 0x61, 0x6c, 0x5f, 0x39, 0x2f, 0x64, 0x65, 0x6e, 0x73, 0x65, 0x5f, 0x32, 0x38, 0x2f, 0x52, 0x65, 0x6c, 0x75, 0x3b, 0x73, 0x65, 0x71, 0x75, 0x65, 0x6e, 0x74, 0x69, 0x61, 0x6c, 0x5f, 0x39, 0x2f, 0x64, 0x65, 0x6e, 0x73, 0x65, 0x5f, 0x32, 0x38, 0x2f, 0x42, 0x69, 0x61, 0x73, 0x41, 0x64, 0x64, 0x00, 0x00, 0x00, 0x02, 0x00, 0x00, 0x00, 0x01, 0x00, 0x00, 0x00, 0x20, 0x00, 0x00, 0x00, 0x6a, 0xfe, 0xff, 0xff, 0x00, 0x00, 0x00, 0x01, 0x10, 0x00, 0x00, 0x00, 0x10, 0x00, 0x00, 0x00, 0x07, 0x00, 0x00, 0x00, 0x2c, 0x00, 0x00, 0x00, 0xd4, 0xfd, 0xff, 0xff, 0x1c, 0x00, 0x00, 0x00, 0x73, 0x65, 0x71, 0x75, 0x65, 0x6e, 0x74, 0x69, 0x61, 0x6c, 0x5f, 0x39, 0x2f, 0x64, 0x65, 0x6e, 0x73, 0x65, 0x5f, 0x33, 0x30, 0x2f, 0x4d, 0x61, 0x74, 0x4d, 0x75, 0x6c, 0x00, 0x00, 0x00, 0x00, 0x02, 0x00, 0x00, 0x00, 0x04, 0x00, 0x00, 0x00, 0x10, 0x00, 0x00, 0x00, 0xb6, 0xfe, 0xff, 0xff, 0x00, 0x00, 0x00, 0x01, 0x10, 0x00, 0x00, 0x00, 0x10, 0x00, 0x00, 0x00, 0x06, 0x00, 0x00, 0x00, 0x2c, 0x00, 0x00, 0x00, 0x20, 0xfe, 0xff, 0xff, 0x1c, 0x00, 0x00, 0x00, 0x73, 0x65, 0x71, 0x75, 0x65, 0x6e, 0x74, 0x69, 0x61, 0x6c, 0x5f, 0x39, 0x2f, 0x64, 0x65, 0x6e, 0x73, 0x65, 0x5f, 0x32, 0x39, 0x2f, 0x4d, 0x61, 0x74, 0x4d, 0x75, 0x6c, 0x00, 0x00, 0x00, 0x00, 0x02, 0x00, 0x00, 0x00, 0x10, 0x00, 0x00, 0x00, 0x20, 0x00, 0x00, 0x00, 0x02, 0xff, 0xff, 0xff, 0x00, 0x00, 0x00, 0x01, 0x10, 0x00, 0x00, 0x00, 0x10, 0x00, 0x00, 0x00, 0x05, 0x00, 0x00, 0x00, 0x2c, 0x00, 0x00, 0x00, 0x6c, 0xfe, 0xff, 0xff, 0x1c, 0x00, 0x00, 0x00, 0x73, 0x65, 0x71, 0x75, 0x65, 0x6e, 0x74, 0x69, 0x61, 0x6c, 0x5f, 0x39, 0x2f, 0x64, 0x65, 0x6e, 0x73, 0x65, 0x5f, 0x32, 0x38, 0x2f, 0x4d, 0x61, 0x74, 0x4d, 0x75, 0x6c, 0x00, 0x00, 0x00, 0x00, 0x02, 0x00, 0x00, 0x00, 0x20, 0x00, 0x00, 0x00, 0x04, 0x00, 0x00, 0x00, 0x4e, 0xff, 0xff, 0xff, 0x00, 0x00, 0x00, 0x01, 0x10, 0x00, 0x00, 0x00, 0x10, 0x00, 0x00, 0x00, 0x04, 0x00, 0x00, 0x00, 0x3c, 0x00, 0x00, 0x00, 0xb8, 0xfe, 0xff, 0xff, 0x2c, 0x00, 0x00, 0x00, 0x73, 0x65, 0x71, 0x75, 0x65, 0x6e, 0x74, 0x69, 0x61, 0x6c, 0x5f, 0x39, 0x2f, 0x64, 0x65, 0x6e, 0x73, 0x65, 0x5f, 0x32, 0x38, 0x2f, 0x42, 0x69, 0x61, 0x73, 0x41, 0x64, 0x64, 0x2f, 0x52, 0x65, 0x61, 0x64, 0x56, 0x61, 0x72, 0x69, 0x61, 0x62, 0x6c, 0x65, 0x4f, 0x70, 0x00, 0x00, 0x00, 0x00, 0x01, 0x00, 0x00, 0x00, 0x20, 0x00, 0x00, 0x00, 0xa6, 0xff, 0xff, 0xff, 0x00, 0x00, 0x00, 0x01, 0x10, 0x00, 0x00, 0x00, 0x10, 0x00, 0x00, 0x00, 0x03, 0x00, 0x00, 0x00, 0x3c, 0x00, 0x00, 0x00, 0x10, 0xff, 0xff, 0xff, 0x2c, 0x00, 0x00, 0x00, 0x73, 0x65, 0x71, 0x75, 0x65, 0x6e, 0x74, 0x69, 0x61, 0x6c, 0x5f, 0x39, 0x2f, 0x64, 0x65, 0x6e, 0x73, 0x65, 0x5f, 0x32, 0x39, 0x2f, 0x42, 0x69, 0x61, 0x73, 0x41, 0x64, 0x64, 0x2f, 0x52, 0x65, 0x61, 0x64, 0x56, 0x61, 0x72, 0x69, 0x61, 0x62, 0x6c, 0x65, 0x4f, 0x70, 0x00, 0x00, 0x00, 0x00, 0x01, 0x00, 0x00, 0x00, 0x10, 0x00, 0x00, 0x00, 0x00, 0x00, 0x16, 0x00, 0x18, 0x00, 0x14, 0x00, 0x00, 0x00, 0x10, 0x00, 0x0c, 0x00, 0x08, 0x00, 0x00, 0x00, 0x00, 0x00, 0x00, 0x00, 0x07, 0x00, 0x16, 0x00, 0x00, 0x00, 0x00, 0x00, 0x00, 0x01, 0x10, 0x00, 0x00, 0x00, 0x10, 0x00, 0x00, 0x00, 0x02, 0x00, 0x00, 0x00, 0x3c, 0x00, 0x00, 0x00, 0x80, 0xff, 0xff, 0xff, 0x2c, 0x00, 0x00, 0x00, 0x73, 0x65, 0x71, 0x75, 0x65, 0x6e, 0x74, 0x69, 0x61, 0x6c, 0x5f, 0x39, 0x2f, 0x64, 0x65, 0x6e, 0x73, 0x65, 0x5f, 0x33, 0x30, 0x2f, 0x42, 0x69, 0x61, 0x73, 0x41, 0x64, 0x64, 0x2f, 0x52, 0x65, 0x61, 0x64, 0x56, 0x61, 0x72, 0x69, 0x61, 0x62, 0x6c, 0x65, 0x4f, 0x70, 0x00, 0x00, 0x00, 0x00, 0x01, 0x00, 0x00, 0x00, 0x04, 0x00, 0x00, 0x00, 0x00, 0x00, 0x16, 0x00, 0x1c, 0x00, 0x18, 0x00, 0x00, 0x00, 0x14, 0x00, 0x10, 0x00, 0x0c, 0x00, 0x00, 0x00, 0x00, 0x00, 0x08, 0x00, 0x07, 0x00, 0x16, 0x00, 0x00, 0x00, 0x00, 0x00, 0x00, 0x01, 0x14, 0x00, 0x00, 0x00, 0x20, 0x00, 0x00, 0x00, 0x20, 0x00, 0x00, 0x00, 0x01, 0x00, 0x00, 0x00, 0x40, 0x00, 0x00, 0x00, 0x02, 0x00, 0x00, 0x00, 0xff, 0xff, 0xff, 0xff, 0x04, 0x00, 0x00, 0x00, 0x04, 0x00, 0x04, 0x00, 0x04, 0x00, 0x00, 0x00, 0x20, 0x00, 0x00, 0x00, 0x73, 0x65, 0x72, 0x76, 0x69, 0x6e, 0x67, 0x5f, 0x64, 0x65, 0x66, 0x61, 0x75, 0x6c, 0x74, 0x5f, 0x64, 0x65, 0x6e, 0x73, 0x65, 0x5f, 0x32, 0x38, 0x5f, 0x69, 0x6e, 0x70, 0x75, 0x74, 0x3a, 0x30, 0x00, 0x00, 0x00, 0x00, 0x02, 0x00, 0x00, 0x00, 0x01, 0x00, 0x00, 0x00, 0x04, 0x00, 0x00, 0x00, 0x02, 0x00, 0x00, 0x00, 0x20, 0x00, 0x00, 0x00, 0x04, 0x00, 0x00, 0x00, 0xf4, 0xff, 0xff, 0xff, 0x19, 0x00, 0x00, 0x00, 0x00, 0x00, 0x00, 0x19, 0x0c, 0x00, 0x0c, 0x00, 0x0b, 0x00, 0x00, 0x00, 0x00, 0x00, 0x04, 0x00, 0x0c, 0x00, 0x00, 0x00, 0x09, 0x00, 0x00, 0x00, 0x00, 0x00, 0x00, 0x09};
